11111111000000000001111111111111
11100000000000000000000011111111
10000000000000011110000000111111
10000000001111111111110000001111
10000001111111111111111100000111
10000011111111111111111100000111
10000111111111111111111110000011
10001111111111111111111110000011
10001111111111111111111110000011
10000111111111111111111100000011
10000111111111111111111100000111
10000111111111111111111100000111
10000011111111111111110000000111
10000001111111111111000000001111
10000000000000000000000000001111
10000000000000000000000000001111
10000000000000000000000000001111
10000000111111111111111000000111
10000001111111111111111110000001
10000111111111111111111111000001
10000111111111111111111111100000
10000111111111111111111111100000
00000111111111111111111111100000
10000111111111111111111111100000
10000111111111111111111111100000
00000111111111111111111111000001
00000111111111111111111110000001
00000011111111111111111000000011
00000001111111111110000000000111
10000000000000000000000000011111
10000000000000000000000001111111
11100000000000000000000111111111