11100000000000000111111111111111
11000000000000000000011111111111
10000000000000000000000000111111
10000000000000000000000000001111
00000000000001000000000000000111
00000000111111111111110000000111
10000000111111111111111100000111
10000000111111111111111100000011
10000000111111111111111100000011
11000001111111111111111100000011
11000001111111111111111100000001
11000001111111111111111100000001
11000000111111111111110000000111
11000000111111111111110000000111
10000000000000000000000000001111
10000000000000000000000000001111
10000000000000000000000000000111
10000000000000000000000000000111
00000000111111111111110000000011
00000000111111111111110000000001
00000000111111111111111100000001
10000001111111111111111100000000
10000001111111111111111110000000
10000001111111111111111110000000
10000001111111111111111110000000
10000001111111111111111110000000
10000001111111111111111100000000
10000000011111111111110000000001
10000000000000000000000000000111
10000000000000000000000000001111
11000000000000000000000000111111
11100000000000000000000000111111