11111111110011111111111111111111
11111111110000001111011111111111
11000000000000000000000011111111
11000000000000000000000000111111
11000000000000000000000000001111
11000000000000000000000000000011
10000000000011111111100000000011
10000000001111111111110000000011
10000000011111111111111100000011
10000011111111111111111100000011
11000011111111111111111100000011
11000011111111111111111100000011
11000000011111111111111000000011
11000000001111111111000000000011
11000000000000000000000000000011
11000000000000000000000000000011
10000000000000000000000000000011
00000000000000000000000000000011
00000000000000001111100000000011
00000000000011111111111110000001
00000000011111111111111110000001
11000000111111111111111110000001
11000000111111111111111100000000
10000001111111111111111100000000
11000001111111111111111100000000
11000001111111111111110000000000
11000000111111111111110000000000
10000000001111111000000000000011
10000000000000000000000000000111
10000000000000000000000000001111
11000000000000000000000011111111
11100000000000000001111111111111