11110000000000000111111111111111
11000000000000000000001111111111
11000000000000000000000001111111
10000000000000000000000000001111
00000000000111111111000000001111
00000000001111111111100000000011
00000000111111111111110000000011
00000000111111111111110000000011
00000000111111111111110000000011
00000000111111111111111000000011
00000000111111111111110000000011
00000000011111111111110000000011
00000000001111111111110000000011
00000000000011111111100000000011
00000000000000001111000000000011
00000000000000111110000000000011
00000000000000111111000000000011
00000000000011111111000000000001
00000000111111111111110000000000
00000000111111111111111000000000
00000000111111111111111100000000
00000000111111111111111100000000
00000000111111111111111110000000
00000000011111111111111110000000
00000000001111111111111110000000
10000000000011111111111100000000
10000000000001111110000000000001
10000000000000000000000000000011
11000000000000000000000000000111
11000000000000000000000000011111
11100000000000000000000011111111
11111111100000111100011111111111