11111111000000000000111111111111
11000000000000000000000011111111
10000000000000000000000000111111
10000000000000000000000000001111
10000000111111111110000000001111
10000001111111111111110000000011
11000001111111111111111100000011
11000001111111111111111110000001
11000001111111111111111110000001
11000001111111111111111110000000
11000001111111111111111110000000
10000001111111111111111110000001
10000001111111111111111000000011
10000000011111111111000000000111
10000000000000000000000000001111
10000000000000000000000000001111
10000000000000000000000000001111
10000001111111001100000000000111
10000001111111111111111000000011
10000001111111111111111100000001
10000001111111111111111110000000
10000001111111111111111111000000
10000001111111111111111111000000
10000001111111111111111111000000
10000001111111111111111110000000
10000001111111111111111110000000
00000001111111111111111000000001
00000000111111111111110000000011
00000000000000000000000000000011
00000000000000000000000000000111
10000000000000000000000000001111
11111000000000000000000001111111