10000000000000000000111111111111
00000000000000000000000011111111
00000000000000000000000000111111
00000000000000000000000000001111
00000000110000000000000000000011
00000001111111111111100000000011
00000001111111111111111100000001
00000001111111111111111110000001
00000001111111111111111110000000
00000001111111111111111110000001
00000001111111111111111110000001
00000001111111111111111110000001
10000001111111111111111000000011
10000000000000000000000000000011
00000000000000000000000000000111
00000000000000000000000000000111
10000000000000000000000000000111
10000000000000000000000000000011
10000001111111111111100000000001
10000001111111111111111110000000
10000001111111111111111110000000
10000001111111111111111110000000
10000001111111111111111110000000
10000001111111111111111110000000
10000001111111111111111110000000
10000001111111111111111110000000
10000001111111111111100000000001
10000000000111110000000000000011
10000000000000000000000000000111
00000000000000000000000000001111
00000000000000000000000001111111
10000000000000000000001111111111