11111111111100000111111111111111
11111100000000000000001111111111
11100000000000000000000001111111
10000000000000000000000000011111
10000000000001110000000000001111
00000000111111111111110000000111
00000001111111111111111000000111
00000001111111111111111110001111
00000001111111111111111111101111
00000001111111111111111111111111
00000000111111111111111111111111
00000000011111111111111111111111
00000000001111111111000000001111
00000000000001111000000000011111
00000000000000000000000000011111
00000000000000000000000000011111
10000000000000000000000000000111
10000000000000000000000000000011
10000000011111111111100000000001
11000000011111111111110000000001
11000000011111111111111000000000
11000000011111111111111110000000
11000000011111111111111110000000
11000000011111111111111110000000
11000000011111111111111110000000
11000000011111111111111100000000
11100000011111111111110000000001
11100000000111111100000000000111
11100000000000000000000000001111
11100000000000000000000000011111
11100000000000000000000000111111
11111000000000000000000111111111