11111111111111111111111111111111
11100000000000000000001111111111
10000000000000000000000001111111
10000000000111110000000000011111
10000000111111111111111000000111
10000011111111111111111100000011
00000011111111111111111100000001
00000011111111111111111110000001
00000011111111111111111111000011
00000111111111111111111111000011
00000111111111111111111111000011
10000111111111111111111100000011
10000011111111111111111000000011
10000001111111111111110000000011
00000000111111111111000000000011
10000000000001111000000000000111
10000000000000000000000000000111
10000001111111111111000000000111
10000011111111111111110000000011
10000011111111111111111100000001
11000111111111111111111110000000
11000111111111111111111110000000
10000111111111111111111111000000
10000111111111111111111111000000
00000111111111111111111111000000
00000111111111111111111111000000
00000111111111111111111110000011
00000111111111111111111000000111
00000011111111111111110000001111
11000000000000011110000000011111
11100000000000000000000111111111
11110000000000000000111111111111