11111111100111111111111111111111
11111000000000000000000001111111
11100000000000000000000000011111
11100000000000000000000000001111
11100000000000000000000000000011
11000000011111111111100000000011
11000000111111111111111000000001
11000000111111111111111100000000
11100000111111111111111110000000
11110000011111111111111110000000
11110000011111111111111110000000
11110000011111111111111110000001
11110000001111111111111100000011
11110000000011111000000000000011
11110000000000000000000000000011
11110000000000000000000000000011
11110000000000000000000000000011
11110000000111111110000000000011
11110000001111111111111000000001
11110000001111111111111100000000
11110000001111111111111110000000
11110000001111111111111111000000
11110000011111111111111111000000
11100000001111111111111111000000
11100000001111111111111110000000
11100000001111111111111110000000
11100000000111111111111100000000
11100000000111111111100000000001
11100000000000000000000000000011
11110000000000000000000000000111
11110000000000000000000000001111
11111110000000000000000001111111