11000000000000000000001111111111
10000000000000000000000011111111
10000000000000000000000000111111
00000000000000000000000000011111
10000000011111111111000000001111
10000000111111111111110000000111
10000000111111111111111100000011
10000001111111111111111100000011
10000001111111111111111100000011
10000001111111111111111100000011
10000001111111111111111100000011
10000001111111111111111100000011
10000001111111111111110000000111
10000000111111111000000000001111
10000000000000000000000000011111
10000000000000000000000000011111
10000000000000000000000000011111
10000000000000000000000000001111
10000000111111111111100000000111
10000000111111111111111000000011
10000000111111111111111100000011
10000000111111111111111110000000
10000000111111111111111110000000
10000001111111111111111110000000
10000001111111111111111110000000
10000001111111111111111100000001
10000000111111111111111100000011
10000000111111111111100000000011
10000000011111100000000000001111
10000000000000000000000000011111
10000000000000000000000000111111
10000000000000000000000011111111