11111101111111111111111111111111
11110000000000000001111111111111
11000000000000000000000000111111
10000000000000000000000000111111
10000000000001100000000000011111
00000000001111111111100000001111
10000000111111111111110000000011
10000000111111111111110000000011
10000001111111111111110000000011
10000001111111111111110000000011
00000001111111111111110000000011
00000000111111111111100000000011
00000000011111111111000000000111
10000000000000000000000000000111
10000000000000000000000000000111
10000000000000000000000000000111
10000000000000000000000000000111
10000000000000000000000000000111
11000000000111000000000000000111
10000000001111111111110000000011
10000000001111111111111000000001
10000000011111111111111100000000
10000000011111111111111100000000
11000000111111111111111100000000
11000000111111111111111100000000
11000000111111111111111000000001
11000000011111111111100000000001
11000000000111111110000000000011
11000000000000000000000000000111
11100000000000000000000000011111
11110000000000000000000001111111
11111100000000000000000011111111