11111111111111111111111111111111
11111111111100000000111111111111
10000000000000000000000000111111
10000000000000000000000000011111
00000000000000000000000000001111
00000000000000000000000000000111
00000000111111111110000000000011
00000001111111111111110000000001
00000001111111111111111100000001
00000001111111111111111100000001
00000001111111111111111100000001
00000000111111111111111100000001
00000000111111111111111100000001
00000000000111111111100000000001
00000000000000000000000000000000
00000000000000000000000000000000
00000000000000000000000000000000
00000000000000000000000000000000
00000000000111111100000000000000
00000000011111111111111100000000
00000000111111111111111110000000
00000000111111111111111110000000
00000000111111111111111111000000
00000000111111111111111111000000
00000000111111111111111110000000
00000000111111111111111100000000
00000000011111111111111000000000
00000000000000000000000000000000
00000000000000000000000000000011
00000000000000000000000000000111
10000000000000000000000000111111
10000000000000000000000011111111