11111110111100000001111111111111
00000000000000000000000011111111
00000000000000000000000000111111
00000000000000000000000000001111
00000001111111111111000000000011
00000011111111111111111000000011
00000011111111111111111100000000
00000011111111111111111111000000
00000011111111111111111111000000
00000011111111111111111111000000
00000011111111111111111111000000
00000011111111111111111100000001
00000001111111111111111000000011
00000000000000000000000000000011
00000000000000000000000000001111
00000000000000000000000000001111
00000000000000000000000000001111
00000001111111111111000000000111
00000011111111111111110000000011
00000011111111111111111100000001
00000011111111111111111100000000
00000011111111111111111111000000
00000011111111111111111111000000
00000011111111111111111111000000
00000011111111111111111111000000
00000011111111111111111110000000
00000011111111111111111100000001
00000011111111111111110000000011
00000011111111111111000000000011
00000000000000000000000000000111
00000000000000000000000000011111
00000000000000000000000011111111