11111111111100000001111111111111
10000000000000000000000011111111
10000000000000000000000000111111
10000000000000000000000000001111
10000001111111111111000000000011
10000001111111111111111000000011
10000001111111111111111110000001
10000001111111111111111111000001
10000001111111111111111111000000
10000001111111111111111111000000
10000001111111111111111111000001
10000001111111111111111110000011
10000001111111111111111000000011
10000000000000000000000000000111
10000000000000000000000000001111
10000000000000000000000000001111
10000000000000000000000000001111
10000001111111111111100000000111
10000001111111111111111000000011
00000011111111111111111100000001
00000011111111111111111110000000
00000011111111111111111110000000
00000011111111111111111110000000
10000011111111111111111110000000
10000011111111111111111110000000
10000011111111111111111110000000
10000011111111111111111000000001
10000011111111111111110000000011
10000001111111011000000000000111
10000000000000000000000000001111
10000000000000000000000000111111
10000000000000000000000111111111