11100000000000000000111111111111
11000000000000000000000111111111
10000000000000000000000000011111
10000000000000000000000000001111
10000000011111111000000000000111
00000001111111111111111000000001
00000001111111111111111110000000
00000001111111111111111111000000
00000001111111111111111111000000
00000001111111111111111111000000
00000001111111111111111111000000
00000001111111111111111111000001
00000000111111111111111000000011
00000000000000000000000000000111
10000000000000000000000000000111
10000000000000000000000000000111
10000000000000000000000000000111
00000000011111111111100000000111
00000001111111111111111000000001
00000001111111111111111110000000
00000001111111111111111111000000
00000001111111111111111111000000
00000001111111111111111111000000
00000001111111111111111111000000
00000001111111111111111111000000
00000001111111111111111110000000
00000001111111111111111000000001
00000001111111111111100000000011
00000000000000000000000000000111
00000000000000000000000000011111
10000000000000000000000001111111
10000000000000000000000111111111