11000000000000000000001111111111
10000000000000000000000011111111
10000000000000000000000000011111
10000000000000000000000000001111
10000001111111111111100000000011
10000001111111111111111000000001
10000001111111111111111100000001
10000011111111111111111110000001
10000011111111111111111110000001
10000011111111111111111110000001
10000001111111111111111110000001
10000001111111111111111110000001
10000001111111111111111100000011
10000001111111111111000000000111
10000000000000000000000000001111
10000000000000000000000000001111
10000000000000000000000000001111
10000011111111111110000000001111
10000011111111111111111100000001
10000011111111111111111110000000
10000011111111111111111111000000
10000011111111111111111111000000
10000011111111111111111111000000
10000011111111111111111111000000
10000011111111111111111111000000
10000011111111111111111111000000
10000011111111111111111111000000
10000011111111111111111100000001
10000000011111111100000000000111
10000000000000000000000000001111
10000000000000000000000001111111
10000000000000000000000111111111