11111111000000000000001111111111
11100000000000000000000011111111
11000000000000000000000000111111
10000000000000000000000000001111
11000000000000000000000000000111
11000000000000111111100000000011
11000000000011111111110000000011
11000000000111111111110000000011
11000000001111111111110000000001
11000000001111111111110000000001
11000000001111111111110000000001
11000000001111111111100000000011
11000000000011111111000000000011
11000000000001111100000000000011
11000000000000000000000000000011
11000000000000000000000000000011
11000000000000000000000000000011
10000000000011111100000000000011
10000000000011111111000000000001
10000000001111111111111100000000
11000000011111111111111110000000
11000000011111111111111110000000
11000000111111111111111110000000
11000001111111111111111100000000
11000000111111111111111000000001
11000000001111111111110000000011
11000000000111111110000000000011
11000000000011100000000000001111
11100000000000000000000000111111
11110000000000000000000001111111
11111110000000000000001111111111
11111111111111000000111111111111