11111111000000000011111111111111
11100000000000000000000011111111
10000000001111111111110000111111
10000001111111111111111100001111
10000011111111111111111110001111
10000111111111111111111110000111
10011111111111111111111110000011
10011111111111111111111110000011
10011111111111111111111110000011
10001111111111111111111110000011
10001111111111111111111110000111
10001111111111111111111110001111
10000111111111111111111100001111
10000001111111111111100000001111
10000000011111111100000000011111
10000000000000000000000000011111
10000000000000000000000000001111
10000001111111111111111110001111
10000011111111111111111111000011
10000111111111111111111111100001
10001111111111111111111111110000
10001111111111111111111111110000
10001111111111111111111111110000
10001111111111111111111111110000
10001111111111111111111111110000
00001111111111111111111111100001
00001111111111111111111111000011
00000111111111111111111110000011
00000111111111111111111000000111
10000000000000000000000000011111
10000000000000000000000001111111
11100000000000000000000111111111