10000000000000000000111111111111
10000000000000000000000011111111
00000000000000000000000000011111
10000000000000000000000000001111
10000011111111111111110000001111
10000011111111111111111100000111
00000011111111111111111100000011
00000011111111111111111110000011
00000011111111111111111110000011
00000011111111111111111110000001
10000011111111111111111110000011
10000011111111111111111100000011
10000011111111111111111000000111
10000001111111111111110000001111
10000000000000000000000000001111
10000000000000000000000000001111
10000000000000000000000000001111
10000000111111111111100000000111
10000001111111111111111000000011
10000001111111111111111110000001
10000001111111111111111111000001
10000001111111111111111111000000
10000001111111111111111111000000
10000001111111111111111111000000
10000001111111111111111111000000
10000001111111111111111111000000
10000001111111111111111110000001
10000001111111111111111100000011
10000000111111111111110000000011
10000000000000000000000000001111
10000000000000000000000000111111
10000000000000000000000111111111