11111111000000000111111111111111
11110000000000000000000000111111
11100000000000000000000000011111
11100000000000000000000000000111
11100000000000011100000000000011
11000000111111111111100000000011
11000000111111111111111000000001
11000000111111111111111100000000
11100000111111111111111110000000
11100000011111111111111110000000
11100000011111111111111110000001
11100000001111111111111110000001
11100000001111111111111100000011
11100000000011111110000000000011
11100000000000000000000000000011
11100000000000000000000000000011
11100000000000000000000000000011
11100000001111111111000000000011
11100000001111111111111000000001
11100000001111111111111100000001
11100000001111111111111110000000
11100000001111111111111110000000
11100000001111111111111111000000
11100000001111111111111111000000
11100000001111111111111110000000
11100000001111111111111110000000
11100000000111111111111100000001
11100000000111111111100000000001
11100000000000000000000000000011
11100000000000000000000000000111
11110000000000000000000000011111
11111100000000000000000000111111