11111110000000000111111111111111
11110000000000000000000000111111
11100000000000000000000000001111
11100000000000000000000000000111
11100000000000000000000000000011
11000000001111111110000000000011
10000000011111111111100000000001
00000000011111111111111000000000
11100000011111111111111100000000
11100000001111111111111100000000
11100000001111111111111100000000
11100000001111111111111100000001
11100000000111111111110000000011
11100000000000000000000000000011
11100000000000000000000000000011
11100000000000000000000000000011
11100000000000000000000000000011
11100000000000000000000000000011
11100000001111111111100000000001
11100000001111111111111000000000
11100000001111111111111100000000
11100000001111111111111100000000
11100000001111111111111100000000
11100000001111111111111100000000
11100000000111111111111100000000
11100000000111111111111000000000
11100000000011111111110000000001
11100000000000000000000000000001
11100000000000000000000000000011
11100000000000000000000000000111
11110000000000000000000000001111
11111100000000000000000000111111