11111111111111111111111111111111
11111111110000001111111111111111
11100000000000000000000111111111
11100000000000000000000000111111
11100000000000000000000000011111
11100000000011011111100000000111
11000000011111111111111111011111
10000000111111111111111111111111
10000011111111111111111111110011
10001111111111111111111111100011
11001111111111111111111111000011
11000111111111111111111111000011
11110010111111111111111110000011
11100000011111111111100000000011
11100000000111000000000000000011
11000000000000000000000000000011
10000000000000000000000000000011
00000000000000000000000000000111
00000000000011111111110000000111
00000000001111111111111111000011
11100001111111111111111111000011
11100001111111111111111111000001
11100011111111111111111111000001
11100011111111111111111111000001
11111111111111111111111111000000
11111111111111111111111110000000
11100011111111111111111000000000
11000001111111111111100000000011
10000000001100000000000000000111
10000000000000000000000000001111
11000000000000000000000011111111
11100000000000000011111111111111