11111000000000000001111111111111
11100000000000000000000011111111
11100000000000000000000000111111
11100000000000000000000000001111
11100000000000000000000000000111
11100000000000000000000000000111
11100000000011111111100000000111
11100000000111111111110000000111
11100000000111111111110000000111
11100000001111111111110000000111
11100000001111111111110000000111
11100000001111111111000000000111
11100000000111110000000000001111
11100000000000000000000000001111
11100000000000000000000000001111
11100000000000000000000000001111
11100000000000000000000000001111
11000000000000000000000000001111
11100000000001111111000000001111
11100000001111111111110000000111
11100000011111111111111000000111
11000000011111111111111100000011
11000000011111111111111100000000
11000000011111111111111100000011
11000000011111111111111000000011
11000000011111111111000000000011
11000000001111110000000000000111
11000000000000000000000000001111
11000000000000000000000000011111
11000000000000000000000000111111
10000000000000000000000011111111
10000000000000000001111111111111