11100000000000000011111111111111
11000000000000000000001111111111
10000000000000000000000000111111
10000000000000000000000000001111
00000000000000000000000000000111
00000000000000000000000000000111
00000000011111111111100000000111
10000000011111111111111000000011
10000000011111111111111000000011
10000000011111111111111000000011
11000000011111111111111000000001
11000000011111111111111000000001
11000000011111111111100000000011
11000000000011111110000000000111
10000000000000000000000000000111
10000000000000000000000000000111
10000000000000000000000000000111
10000000000000000000000000000111
00000000001111111110000000000001
00000000011111111111100000000001
00000000011111111111111000000000
00000000011111111111111000000000
10000000111111111111111100000000
10000000111111111111111100000000
10000000111111111111111100000000
10000000111111111111111000000000
10000000001111111111100000000000
10000000000001111110000000000001
10000000000000000000000000000111
10000000000000000000000000001111
11000000000000000000000000011111
11100000000000000000000000111111