11111110000001111111111111111111
11111100000000000011111111111111
11000000000000000000000011111111
11000000000000000000000000011111
10000000000000000000000000000111
10000000000000000000000000000011
10000000001111111110000000000000
10000000011111111111110000000000
10000000011111111111111000000000
11000000011111111111111000000000
11000000011111111111111000000001
11000000011111111111110000000011
11000000011111111100000000000111
10000000001111111000000000001111
10000000000000000000000000001111
10000000000000000000000000001111
10000000000000000000000000001111
10000000000000000000000000000011
10000000001111111111000000000011
11000000011111111111110000000001
11000000011111111111111000000000
11000000011111111111111000000000
11000000011111111111111000000000
11000000011111111111111000000000
11000000011111111111110000000000
11000000011111111111110000000001
11000000000111111110000000000011
11000000000000000000000000000011
11000000000000000000000000001111
11000000000000000000000000011111
11000000000000000000000011111111
11100000000000000000001111111111