11111111111111100111111111111111
11000000000000000000001111111111
10000000000000000000000001111111
00000000000000000000000000111111
00000000000000111111110000001111
10000000000001111111111000000111
10000000011111111111111100000111
10000000111111111111111100000111
10000001111111111111111100000011
10000001111111111111111100000011
10000001111111111111111100000111
10000000111111111111111000001111
00000000011111111111110000001111
10000000000000000000000000001111
10000000000000000000000000001111
10000000000000000000000000001111
10000000000000000000000000001111
10000000000000001111111000000111
11000000000000011111111100000011
11000000000111111111111111000011
11000000001111111111111111000001
11000000011111111111111111000000
11000000111111111111111111000000
11000000111111111111111111000000
11000000111111111111111110000001
11000000011111111111111000000011
10000000011111111111110000000111
11000000001111001100000000011111
11000000000000000000000000111111
11000000000000000000000011111111
11111100000000000000011111111111
11111110000111111001111111111111