11111000000110000011111111111111
00000000000000000000000011111111
00000000000000000000000000011111
00000000000000000000000000001111
00000000000000000000000000000111
00000000111111111110000000000011
00000000111111111111110000000011
00000000111111111111111000000011
00000001111111111111111000000001
00000001111111111111111100000001
00000000111111111111111100000011
00000000111111111111111100000011
00000000111111111111111000000011
00000000000000000000000000000111
00000000000000000000000000001111
00000000000000000000000000001111
00000000000000000000000000001111
00000000000000000000000000000111
00000001111111111111000000000011
00000001111111111111111100000000
00000001111111111111111100000000
00000001111111111111111100000000
00000001111111111111111100000000
00000001111111111111111100000000
00000001111111111111111100000000
00000001111111111111111100000001
00000000111111111111110000000001
00000000011111100000000000000011
00000000000000000000000000001111
00000000000000000000000000011111
00000000000000000000000001111111
11000000000000000000001111111111