11111110000001111111111111111111
11111100000000000011111111111111
11000000000000000000000011111111
11000000000000000000000000011111
10000000000000000000000000000111
10000000000000000000000000000011
10000000000011110000000000000000
10000000000111111111000000000000
10000000001111111111110000000000
10000000001111111111110000000000
11000000001111111111110000000000
11000000001111111111100000000001
11000000001111111000000000000011
10000000000000000000000000000111
10000000000000000000000000000111
10000000000000000000000000000111
10000000000000000000000000000111
10000000000000000000000000000011
10000000000000000000000000000011
11000000001111111111000000000001
11000000001111111111100000000000
11000000011111111111110000000000
11000000011111111111110000000000
11000000011111111111110000000000
11000000011111111111100000000000
11000000001111111111100000000000
11000000000000011000000000000001
11000000000000000000000000000011
11000000000000000000000000000111
11000000000000000000000000001111
11000000000000000000000000011111
00000000000000000000000111111111