11100000000000000000011111111111
11000000000000000000000011111111
10000000000000000000000000011111
00000000000000000000000000001111
00000000000000000000000000000111
00000000000000000000000000000011
00000000011111111111110000000011
00000000111111111111111100000001
00000000111111111111111100000001
00000000111111111111111100000001
00000000111111111111111100000001
00000000111111111111111000000011
00000000000001111111000000000111
00000000000000000000000000000111
00000000000000000000000000000111
00000000000000000000000000000111
00000000000000000000000000000111
10000000000000000000000000000011
10000000001111111111110000000011
10000000111111111111111000000001
10000000111111111111111100000000
10000000111111111111111100000000
10000000111111111111111100000000
10000000111111111111111100000000
00000000111111111111111100000000
00000000011111111111110000000000
00000000001111111111000000000011
00000000000000000000000000000111
00000000000000000000000000001111
00000000000000000000000000011111
10000000000000000000000011111111
11000000000000000000000111111111