11111111110011100011111111111111
11000000000000000000001111111111
10000000000000000000000001111111
00000000000000000000000000011111
00000000000000000000000000001111
00000000000000111111100000000111
10000000000001111111111000000111
10000000011111111111111000000111
10000000111111111111111000000011
10000000111111111111111000000011
10000000111111111111111000000111
10000000111111111111111000000111
00000000011111111111110000001111
00000000000000000000000000001111
10000000000000000000000000001111
10000000000000000000000000001111
10000000000000000000000000001111
10000000000000000000000000000111
10000000000000000111111000000011
11000000000000011111111100000011
11000000000111111111111110000001
11000000001111111111111110000000
11000000011111111111111110000000
11000000011111111111111110000000
11000000011111111111111100000000
11000000011111111111111000000001
10000000001111111111110000000011
10000000000110000000000000001111
11000000000000000000000000011111
11000000000000000000000000111111
11100000000000000000000111111111
11111100000000000000001111111111