11111111111100000000011111111111
10000000000000000000000001111111
10000000000000000000000000001111
10000000000000000000000000000111
10000000000000000000000000000011
10000000000000000000000000000011
00000000000000000000000000000001
00000000011111111110000000000001
00000000011111111111100000000001
00000000011111111111110000000001
10000000011111111111110000000001
10000000001111111111110000000001
10000000000000000000000000000001
10000000000000000000000000000001
10000000000000000000000000000000
10000000000000000000000000000000
00000000000000000000000000000000
00000000000000000000000000000000
00000000000000000000000000000000
00000000000111111110000000000000
00000000001111111111110000000000
00000000001111111111111100000000
00000000001111111111111100000000
00000000001111111111111000000000
00000000001111111111111000000000
00000000000111111111100000000000
00000000000000000000000000000000
10000000000000000000000000000000
10000000000000000000000000000001
10000000000000000000000000000011
10000000000000000000000000001111
10000000000000000000000001111111