11111111111100111111111111111111
11110000000000000000001111111111
11000000000000000000000001111111
11000000000000000000000000011111
10000000000000000000000000001111
10000000000111111111100000000111
11000000011111111111111000000011
11000000111111111111111000000011
11000000111111111111111100000011
11000000111111111111111100000011
11000000111111111111111100000011
10000000111111111111111000000011
10000000111111111111110000000011
11000000001111110000000000000111
11000000000000000000000000001111
11000000000000000000000000001111
11000000000000000000000000000111
11000000000011111111100000000011
11000000011111111111110000000011
10000000011111111111111000000001
11000000111111111111111000000000
11000000111111111111111100000000
10000000111111111111111100000000
10000000011111111111111100000000
10000000111111111111111100000000
10000000111111111111111000000000
10000000011111111111111000000001
11000000001111111111000000000011
11000000000000000000000000001111
11000000000000000000000000111111
11000000000000000000000001111111
11110000000000000000000111111111