11111100000001111111111111111111
11110000000000000000001111111111
10000000000000000000000000011111
10000000000000000000000000000111
10000000011111111110000000000111
10000000111111111111111000000001
10000000111111111111111100000001
10000000111111111111111110000001
10000000111111111111111111000000
10000000111111111111111111000000
10000000111111111111111111000001
10000000111111111111111110000001
10000000111111111111111000000011
10000000011111111111100000000011
10000000000000000000000000000011
00000000000000000000000000000011
10000000000000000000000000000011
10000000000001100000000000000011
10000000111111111111111000000001
10000000111111111111111000000000
10000000111111111111111110000000
10000000111111111111111111000000
10000000111111111111111111000000
10000000111111111111111111000000
10000000111111111111111111000000
10000000111111111111111110000000
10000000111111111111111110000000
10000000111111111111111000000001
10000000000000000000000000000011
10000000000000000000000000001111
10000000000000000000000000111111
11000000000000000000000001111111