11111111100000000111111111111111
11000000000000000000001111111111
00000000000000000000000011111111
00000000000000000000000000011111
00000000000000000000000000001111
00000000000000000000000000000111
00000000111111111111100000000000
00000000111111111111111000000000
00000000111111111111111000000000
00000000011111111111111100000000
00000000001111111111111100000000
00000000000111111111111100000000
00000000000000000000000000000000
00000000000000000000000000000011
00000000000000000000000000000011
00000000000000000000000000000011
00000000000000000000000000000011
00000000000000000000000000000000
00000000000011111111000000000000
00000000011111111111110000000000
00000000011111111111111000000000
00000000011111111111111000000000
00000000011111111111111000000000
00000000011111111111111000000000
00000000011111111111111000000000
00000000011111111111110000000000
00000000001111111111000000000000
00000000000000000000000000000011
00000000000000000000000000000111
00000000000000000000000000000111
00000000000000000000000000111111
00000000000000000000000011111111