11000000000000001111111111111111
10000000000000000000000011111111
00000000000000000000000000111111
00000000000000000000000000001111
00000000000011110000000000000111
00000000111111111111110000000011
00000000111111111111111100000001
00000000111111111111111100000001
00000000111111111111111100000000
00000000111111111111111100000000
00000000111111111111111100000000
10000000111111111111111100000000
10000000111111111111111000000000
00000000011111111100000000000001
00000000000000000000000000000011
00000000000000000000000000000011
00000000000000000000000000000011
00000000000011110000000000000011
00000000111111111111100000000001
00000000111111111111111000000000
00000000111111111111111100000000
00000000111111111111111100000000
00000000111111111111111100000000
00000000111111111111111110000000
00000000111111111111111110000000
00000000111111111111111110000000
00000000111111111111111100000000
00000000111111111111100000000000
00000000000000000000000000000011
00000000000000000000000000000111
00000000000000000000000000011111
10000000000000000000000000111111