11111111111100001111111111111111
11111100000000000000001111111111
11100000000000000000000000111111
11000000000000000000000000011111
10000000000011111000000000000111
10000000001111111111000000000111
10000001111111111111111100000111
10000001111111111111111111000111
10000001111111111111111111101111
00000001111111111111111111111111
10000000111111111111111111111111
10000000011111111111111111110111
10000000001111111111110000001111
10000000000000000000000000001111
10000000000000000000000000001111
10000000000000000000000000001111
10000000000000000000000000000111
10000000000000000000000000000001
11000000001111111111110000000001
11000000011111111111111000000000
11000000011111111111111100000000
11000000011111111111111110000000
11000000011111111111111111000000
11000000011111111111111111000000
11100000011111111111111111000000
11100000011111111111111100000000
11100000001111111111000000000001
11100000000011110000000000000111
11100000000000000000000000001111
11100000000000000000000000011111
11110000000000000000000001111111
11111110000000000000011111111111