11111100000000000001111111111111
11100000000000000000000011111111
11100000000000000000000000111111
11100000000000000000000000001111
11100000000000000000000000000111
11100000000111111111110000000111
11100000001111111111111000000111
11100000001111111111111000000111
11100000011111111111111000000111
11100000011111111111111000000111
11100000111111111111111000000111
11100000111111111111110000000111
11100000111111111110000000001111
11100000000000000000000000001111
11100000000000000000000001101111
11100000000000000000000011101111
11100000000000000000000011101111
11100000000000000000000111101111
11100000001111111111111111101111
11100000011111111111111011000111
11100000011111111111111000000111
11100000011111111111111100000111
11000011111111111111111100000001
11000011111111111111111100000011
11000000011111111111111100000011
11000000011111111111111000000011
11000000011111111111100000000111
11000000011111110000000000001111
11000000000000000000000000011111
11000000000000000000000000111111
11000000000000000000000011111111
10000000000000000001111111111111