11111111110011111111111111111111
11111111110000001111111111111111
11100000000000000000000011111111
11100000000000000000000000111111
11100000000000000000000000001111
11000000000111111111110111111111
10000000011111111111111111111111
10000001111111111111111111101011
10000011111111111111111111100011
11000111111111111111111111000011
11000111111111111111111111000011
11110011111111111111111110000011
11110000111111111111111000000011
11110000011111111111000000000011
11000000000000000000000000000011
11000000000000000000000000000111
00000000000000000000000000000011
00000000000000000000000000000111
00000000000111111111111111000111
00000000011111111111111111000011
11100001111111111111111111000011
11110011111111111111111111000001
11100011111111111111111111000001
11111111111111111111111111000001
11111111111111111111111111000000
11100011111111111111111100000000
11100011111111111111111000000001
11000000011111111110000000000111
10000000000000000000000000001111
10000000000000000000000001111111
11100000000000000001111111111111
11111000111100001111111111111111