11111111111000011111101111111111
11100000000000000000000011111111
11000000000000000000000000111111
10000000000000000000000000011111
10000000000111111111110000000111
10000000111111111111111100000001
10000000111111111111111110000000
10000001111111111111111111000000
00000001111111111111111111000000
00000001111111111111111111000000
00000000111111111111111111000000
00000000111111111111111111000001
00000000111111111111111100000001
00000000001111111111100000000011
00000000000000000000000000000011
00000000000000000000000000000011
00000000000000000000000000000001
10000000000000000000000000000000
10000000111111111111111110000000
00000001111111111111111111000000
00000001111111111111111111000000
00000001111111111111111111100000
00000001111111111111111111110000
00000001111111111111111111110000
00000001111111111111111111110000
00000001111111111111111111100001
00000000111111111111111110000011
00000000001111111111111000000111
00000000000000000000000000001111
10000000000000000000000000011111
11000000000000000000000011111111
11100000000000000000011111111111