11111000000000000000000111111111
11110000000000000000000011111111
11100000000000000000000000011111
11100000000000000000000000000111
11100000000000011100000000000011
11000000000011111111110000000001
11000000001111111111111000000000
11000000001111111111111000000000
11000000001111111111111000000000
11000000001111111111110000000000
11000000001111111111100000000000
10000000001111111111000000000001
10000000000011111000000000000011
10000000000000000000000000000011
10000000000000000000000000000011
10000000000000000000000000000011
10000000000000000000000000000011
10000000000011111111000000000011
10000000001111111111110000000001
10000000001111111111111000000000
10000000011111111111111100000000
00000000111111111111111100000000
00000000111111111111111100000000
00000000111111111111111000000000
00000000111111111111110000000000
00000000111111111111100000000001
00000000111111111111000000000001
00000000001111110000000000000111
00000000000000000000000000001111
10000000000000000000000000011111
11000000000000000000000011111111
11100000000000000000000111111111