11111111011111111111111111111111
11000000000000000000001111111111
00000000000000000000000001111111
00000000000000000000000000011111
00000000111111111111000000001111
00000001111111111111110000000111
00000011111111111111111000000011
00000011111111111111111100000011
00000011111111111111111100000011
00000011111111111111111100000011
00000011111111111111111100000011
00000011111111111111111100000011
00000011111111111111111000000111
00000001111111111111110000000111
00000000000000000000000000001111
00000000000000000000000000001111
00000000000000000000000000001111
00000000000000000000000000001111
00000000111111111111110000000111
00000001111111111111111100000011
00000001111111111111111110000001
00000001111111111111111111000000
10000001111111111111111111000000
10000001111111111111111111000000
10000001111111111111111111000000
10000000111111111111111111000000
00000000111111111111111110000001
10000000111111111111111100000011
10000000001111111111100000000111
10000000000000000000000000001111
10000000000000000000000000111111
11000000000000000000000011111111