11100111111000000111111111111111
10000000000000000000000111111111
10000000000000000000000000111111
10000000000000000000000000011111
10000000001111111111100000000111
10000000111111111111111000000111
10000000111111111111111100000011
10000001111111111111111110000001
10000001111111111111111110000001
10000001111111111111111110000001
10000001111111111111111110000001
10000001111111111111111100000001
10000000111111111111111000000111
10000000111111111111100000000111
10000000000000000000000000011111
10000000000000000000000000011111
10000000000000000000000000000111
10000001111111111111110000000111
10000001111111111111111100000011
10000011111111111111111110000001
10000011111111111111111111000000
00000011111111111111111111000000
00000001111111111111111111000000
10000001111111111111111111000000
10000001111111111111111111000000
00000001111111111111111111000000
00000001111111111111111100000001
00000000111111111111110000000011
10000000000000000000000000000111
10000000000000000000000000011111
11000000000000000000000000111111
11000000000000000000000111111111