10000000000000001111111111111111
10000000000000000000011111111111
00000000000000000000000001111111
00000001111111110000000000001111
00000011111111111111100000000111
00000011111111111111111000000011
00000011111111111111111110000001
00000011111111111111111110000001
00000011111111111111111110000000
00000011111111111111111111000000
00000011111111111111111111000000
00000011111111111111111110000001
00000001111111111111111110000111
00000001111111111111111000000111
00000000000000000000000000001111
00000000000000000000000000011111
00000000000000000000000000011111
00000011111111111111000000001111
00000011111111111111111000000111
00000011111111111111111110000001
00000011111111111111111111000000
00000011111111111111111111100000
00000011111111111111111111110000
00000011111111111111111111110000
00000011111111111111111111110000
00000011111111111111111111100000
00000011111111111111111111000000
00000011111111111111111110000001
00000001111111111111110000000111
00000000000000000000000000000111
10000000000000000000000000011111
10000000000000000000000001111111