11000000000000000000111111111111
10000000000000000000000001111111
10000000000000000000000000011111
10000000000000000000000000001111
10000000111111111111100000000111
10000000111111111111111000000011
10000000111111111111111100000001
10000000111111111111111100000001
00000000111111111111111110000000
10000000111111111111111110000001
10000000111111111111111100000001
10000000111111111111111100000001
10000000111111111111111000000011
10000000011111111111000000001111
10000000000000000000000000011111
10000000000000000000000000011111
10000000000000000000000000001111
10000000011111100000000000000011
10000000111111111111111000000011
10000000111111111111111110000000
10000000111111111111111111000000
10000000111111111111111111000000
10000000111111111111111111000000
10000000111111111111111111000000
10000000111111111111111111000000
10000000111111111111111110000000
11000000111111111111111100000000
11000000111111111111110000000011
11000000000000000000000000000011
11000000000000000000000000001111
10000000000000000000000000111111
11000000000000000000000111111111