11111000000000000000011111111111
11000000000000000000000011111111
10000000000000000000000001111111
10000000000000000000000000011111
00000000011111000000000000001111
00000011111111111111100000001111
00000011111111111111111000001111
00000011111111111111111000000111
10000000111111111111111000000111
10000000111111111111111000000111
10000000111111111111111000001111
10000000111111111111111000001111
10000000111111111111110000001111
11000000000111110000000000001111
11000000000000000000000000001111
11000000000000000000000000001111
11000000000000000000000000001111
10000000000000000000000000001111
10000011111111111111110000000111
11000011111111111111111000000011
11000011111111111111111100000011
10000011111111111111111100000001
10000011111111111111111110000000
10000001111111111111111110000001
10000000111111111111111100000011
10000000111111111111111000000011
11000000111111111111110000000111
11000000011111111100000000001111
11000000000000000000000000011111
11000000000000000000000001111111
11000000000000000000000001111111
11100000000000000000111111111111