11111111000000000111111111111111
11111000000000000000001111111111
11100000000000000000000001111111
11000000000000000000000000011111
10000000000000000000000000001111
10000000000111111000000000000111
10000000011111111111000000000011
00000000011111111111111000000011
10000000011111111111111000000011
10000000011111111111111000000011
10000000011111111111111000000001
10000000011111111111110000000011
10000000001111111100000000000011
10000000000000000000000000000011
10000000000000000000000000000011
00000000000000000000000000000011
00000000000000000000000000000011
00000000000000000000000000000011
00000000000000000000000000000011
00000000011111111111100000000001
00000000011111111111111000000001
10000000011111111111111000000000
10000000011111111111111000000000
10000000011111111111111000000000
10000000001111111111111000000000
10000000000111111111000000000001
10000000000000000000000000000011
10000000000000000000000000000011
10000000000000000000000000001111
11000000000000000000000000111111
11000000000000000000000011111111
11110000000000000000111111111111