11100000000000000000011111111111
11000000000000000000000011111111
10000000000000000000000000011111
00000000000000000000000000001111
10000000000000000000000000000111
00000000111111111111111000000011
00000001111111111111111110000011
00000001111111111111111110000001
10000001111111111111111110000001
10000001111111111111111110000001
10000001111111111111111110000011
10000001111111111111111110000111
00000001111111111111111000000111
00000000000000000000000000000111
00000000000000000000000000000111
00000000000000000000000000000111
00000000000000000000000000000111
10000000000000000000000000000111
10000001111111111111111000000011
10000001111111111111111100000001
10000001111111111111111110000000
10000001111111111111111110000000
10000001111111111111111110000000
10000001111111111111111110000000
10000001111111111111111110000000
00000001111111111111111110000000
00000000111111111111111000000011
00000000011111111111000000000111
00000000000000000000000000001111
00000000000000000000000000011111
10000000000000000000000011111111
11000000000000000000001111111111