11111111111000000000111111111111
11100000000000000000000111111111
11000000000000000000000000111111
11000000000000000000000000011111
11000000000000000000000000000111
11000000000000000000000000000011
11000000000000000000000000000011
11000000000011111111100000000011
11000000000111111111100000000011
11000000000111111111100000000011
11000000000111111111100000000011
11000000000011111111000000000011
10000000000000111110000000000011
10000000000000011110000000000011
00000000000000000000000000000011
00000000000000000000000000000011
00000000000000000000000000000001
10000000000000000000000000000000
11000000000000000000000000000000
11000000000001111110000000000000
11000000000011111111000000000000
10000000000011111111100000000000
10000000000011111111100000000000
11000000000011111111100000000000
11000000000011111110000000000011
11000000000000000000000000000111
10000000000000000000000000000111
10000000000000000000000000000011
10000000000000000000000000000111
10000000000000000000000000001111
11000000000000000000000000111111
11100000000000000000000011111111