10000000000000000000000111111111
00000000000000000000000001111111
00000000000000000000000000011111
00000000000000000000000000000111
00000000000000000000000000000011
10000000011111111110000000000001
10000000011111111111111000000000
10000000011111111111111000000000
10000000011111111111111100000000
10000000011111111111111100000000
10000000011111111111111100000000
10000000011111111111111000000000
10000000001111111110000000000000
10000000000000000000000000000011
10000000000000000000000000000111
10000000000000000000000000000111
10000000000000000000000000000111
10000000000000000000000000000001
10000000011111111111000000000001
10000000011111111111110000000000
10000000011111111111111000000000
10000000011111111111111100000000
10000000011111111111111100000000
10000000011111111111111100000000
10000000011111111111111000000000
10000000011111111111111000000000
10000000011111111111110000000000
10000000000001110000000000000000
10000000000000000000000000000011
10000000000000000000000000000111
10000000000000000000000000011111
10000000000000000000000000111111