11111000000000000000011111111111
11000000000000000000000011111111
10000000000000000000000000111111
10000000000000000000000000011111
00000000000000000000000000001111
00000000001111000000000000000111
00000000111111111111100000000111
00000000111111111111110000000111
10000000111111111111110000000111
10000000111111111111110000000111
10000000111111111111110000000111
10000000011111111111110000000111
10000000011111111111100000001111
11000000000000000000000000001111
11000000000000000000000000001111
11000000000000000000000000001111
11000000000000000000000000001111
10000000000000000000000000000111
10000000001111111000000000000111
10000001111111111111110000000011
10000001111111111111111000000001
10000001111111111111111100000001
10000000111111111111111100000000
10000000111111111111111100000000
10000000111111111111111000000011
10000000011111111111110000000011
11000000001111111000000000000111
11000000000000000000000000000111
11000000000000000000000000011111
11000000000000000000000000111111
11000000000000000000000001111111
11100000000000000000111111111111