11111000000000000011111111111111
11110000000000000000000111111111
11000000000000000000000000111111
10000000000000000000000000001111
10000000000111111111000000001111
10000000111111111111110000000111
10000000111111111111111100000011
10000001111111111111111110000001
00000011111111111111111110000001
00000011111111111111111110000001
00000011111111111111111110000001
00000001111111111111111100000001
00000000111111111111110000000001
00000000001111111100000000000011
00000000000000000000000000000011
00000000000000000000000000000011
00000000000000000000000000000011
00000000000111111110000000000011
00000000001111111111100000000001
00000000111111111111111100000001
00000001111111111111111110000000
10000011111111111111111111000000
10000011111111111111111111100000
10000011111111111111111111100000
10000011111111111111111111100000
10000011111111111111111111000000
10000011111111111111111110000000
00000001111111111111111000000001
00000000111111111111000000000011
00000000000000000000000000000111
10000000000000000000000000001111
10000000000000000000000000111111