11111111111111110011111111111111
11100000000000000000001111111111
11000000000000000000000001111111
10000000000000000000000000011111
10000000000000000000000000001111
10000000000000000000000000000111
00000000000011111100000000000011
10000000001111111111000000000011
10000000001111111111100000000011
10000000001111111111100000000011
10000000001111111111100000000011
10000000001111111110000000000011
10000000000111100000000000000011
10000000000000000000000000000011
10000000000000000000000000000011
10000000000000000000000000000011
10000000000000000000000000000011
10000000000000000000000000000011
10000000000011100000000000000001
10000000001111111111000000000000
10000000001111111111110000000000
10000000001111111111111000000000
10000000001111111111111000000000
10000000001111111111111000000000
10000000001111111111110000000000
10000000001111111111100000000000
10000000000011111100000000000001
10000000000000000000000000000011
10000000000000000000000000000011
11000000000000000000000000001111
11000000000000000000000000111111
11100000000000000000000001111111