11110001111111111111111111111111
11000000000000000000001111111111
10000000000000000000000001111111
10000000001111111111000000001111
10000000111111111111110000000111
10000001111111111111111000000011
00000001111111111111111100000011
00000001111111111111111110000001
00000011111111111111111110000001
00000011111111111111111110000001
00000011111111111111111110000001
00000001111111111111111100000001
00000001111111111111111000000011
00000000111111111111100000000111
00000000001111110000000000000111
00000000000000000000000000000111
00000000000011100000000000000111
00000000011111111100000000000111
10000000111111111111111000000011
10000001111111111111111100000001
10000011111111111111111110000000
10000011111111111111111111000000
10000011111111111111111111000000
00000011111111111111111111000000
00000011111111111111111111000000
00000011111111111111111111000000
00000011111111111111111110000000
00000001111111111111111100000001
00000000111111111111110000000011
10000000001111100000000000001111
11000000000000000000000000111111
11000000000000000000000011111111