11111111110111111111111111111111
11111000000000000000111111111111
11100000000000000000000011111111
11000000000000000000000000111111
10000000000000000000000000001111
00000000000000000000000000000011
00000000000000000000000000000011
00000000000011111100000000000000
00000000000111111111000000000000
00000000000111111111000000000000
00000000000111111111000000000000
00000000000011111110000000000000
00000000000000111000000000000000
00000000000000000000000000000001
00000000000000000000000000000001
00000000000000000000000000000001
00000000000000000000000000000001
00000000000000000000000000000001
00000000000000000000000000000001
00000000000000111100000000000001
00000000000011111111000000000000
00000000000111111111100000000000
00000000000111111111100000000000
00000000000111111111100000000000
00000000000011111111000000000000
00000000000001111100000000000000
00000000000000000000000000000001
10000000000000000000000000000011
11000000000000000000000000001111
11000000000000000000000000011111
11110000000000000000000011111111
11111000000000000001111111111111