11100000000000000000011111111111
11000000000000000000000011111111
10000000000000000000000000011111
10000000111111111111000000000111
10000011111111111111111000000011
10000011111111111111111100000001
10000011111111111111111110000001
10000011111111111111111111000001
10000011111111111111111111000001
10000011111111111111111111000001
10000011111111111111111111000011
10000011111111111111111110000011
10000001111111111111111000000111
10000000111111111111100000001111
10000000000000000000000000001111
10000000000000000000000000000111
10000000000000000000000000000111
10000001111111111111110000000011
10000011111111111111111110000001
10000111111111111111111111000001
00000111111111111111111111100000
00000111111111111111111111110000
00000111111111111111111111110000
00000111111111111111111111110000
00000111111111111111111111100000
00000111111111111111111111100000
00000111111111111111111111000000
00000011111111111111111100000001
00000000011111111111100000000011
00000000000000000000000000000111
10000000000000000000000000011111
11000000000000000000000011111111