11000111101111111111101111111111
10000000000000000000000011111111
00000000000000000000000000111111
00000000000000000000000000011111
00000000000000000000000000001111
00000000001111100000000000000011
00000000111111111111100000000001
00000000111111111111111000000000
00000000111111111111111100000000
00000000111111111111111100000001
00000000111111111111111100000001
00000000111111111100111000000001
00000000111100111100000000000011
00000000000000000000000000000111
00000000000000000000000000001111
00000000000000000000000000001111
00000000000000000000000000001111
00000000000000000000000000000111
00000000001111111111000000000011
00000000111111111111100000000011
00000000111111111111111000000000
00000000111111111111111100000000
00000000111111111111111100000000
00000000111111111111111100000000
00000000111111111111111000000000
00000000111111111111111000000000
10000000011111111100000000000001
10000000000000000000000000000011
10000000000000000000000000000111
10000000000000000000000000001111
10000000000000000000000000111111
10000000000000000000000111111111