11111100000111111111111111111111
11100000000000000000011111111111
11000000000000000000000001111111
11000000000000000000000000011111
10000000000000000000000000001111
10000000000001110000000000000011
10000000000111111110000000000011
10000000001111111111100000000001
00000000001111111111110000000001
00000000001111111111110000000001
00000000001111111111110000000001
00000000001111111111100000000001
00000000000111111111000000000001
00000000000011111000000000000011
00000000000000000000000000000011
10000000000000000000000000000011
10000000000000000000000000000011
10000000000001110000000000000001
10000000000111111110000000000001
10000000001111111111110000000001
10000000011111111111111100000000
10000000011111111111111100000000
10000000011111111111111100000000
10000000011111111111111100000000
10000000001111111111111100000000
10000000001111111111111100000000
11000000000111111111110000000001
11000000000001111110000000000011
11000000000000000000000000001111
11100000000000000000000000011111
11110000000000000000000001111111
11110000000000000000011111111111