11100000000000000011111111111111
00000000000000000000000001111111
00000000000000000000000000011111
00000000000000000000000000001111
00000000000000000000000000000111
00000000000111000000000000000011
00000000011111111111110000000011
00000000011111111111111000000001
00000000011111111111111000000000
00000000011111111111111000000000
00000000011111111111111000000000
00000000011111111111110000000001
00000000011111111111110000000011
00000000000000000000000000000011
00000000000000000000000000000011
00000000000000000000000000000111
00000000000000000000000000000111
00000000000000000000000000000011
00000000001111111111000000000001
00000000111111111111110000000000
00000000111111111111111000000000
00000000111111111111111100000000
00000000111111111111111110000000
00000000111111111111111110000000
00000000111111111111111100000000
00000000111111111111111000000000
00000000011111111111000000000001
00000000000000000000000000000011
00000000000000000000000000000111
00000000000000000000000000001111
00000000000000000000000000011111
10000000000000000000000011111111