11000000000000000000001111111111
10000000000000000000000011111111
10000000000000000000000000111111
00000000000000000000000000011111
00000000000000000000000000000111
10000000001111111110000000000111
10000000111111111111110000000011
10000000111111111111111000000011
10000000111111111111111000000011
10000000111111111111111000000011
10000000111111111111111000000011
10000000111111111111111000000011
10000000111111111111100000000111
10000000000000000000000000000111
10000000000000000000000000011111
10000000000000000000000000011111
10000000000000000000000000011111
10000000000000000000000000000111
10000000111111111100000000000011
10000000111111111111110000000011
10000000111111111111111100000000
10000000111111111111111100000000
10000000111111111111111100000000
10000000111111111111111100000000
10000000111111111111111100000000
10000000111111111111111100000001
10000000111111111111100000000011
10000000001111000000000000000011
10000000000000000000000000000111
10000000000000000000000000011111
10000000000000000000000000111111
10000000000000000000000011111111