11111110000000111111111111111111
11110000000000000000000011111111
11100000000000000000000000111111
11000000000000000000000000001111
11000000000000000000000000000111
10000000000000000000000000000011
10000000000000000000000000000001
10000000000000111100000000000000
10000000000001111110000000000000
10000000000011111110000000000000
10000000000011111110000000000000
10000000000011111110000000000000
10000000000001111000000000000001
10000000000000000000000000000001
10000000000000000000000000000001
10000000000000000000000000000001
10000000000000000000000000000001
10000000000000000000000000000001
10000000000000000000000000000001
10000000000001111110000000000000
10000000000011111111000000000000
10000000000011111111000000000000
10000000000011111111000000000000
10000000000011111111000000000000
10000000000011111111000000000000
10000000000011111111000000000000
10000000000001111100000000000001
11000000000000000000000000000011
11000000000000000000000000001111
11100000000000000000000000001111
11110000000000000000000001111111
11111000000000000000001111111111