11101111111100011111111111111111
11000000000000000000000111111111
10000000000000000000000000111111
10000000000000000000000000011111
10000000000000000000000000000111
10000000001111111111000000000111
10000000111111111111110000000011
10000000111111111111111100000011
10000000111111111111111100000011
10000000111111111111111100000011
00000000111111111111111100000011
00000000111111111111111000000011
10000000111111111111110000000011
10000000000001111000000000001111
10000000000000000000000000001111
10000000000000000000000000001111
10000000000000000000000000000111
00000000111111111110000000000111
00000000111111111111100000000011
00000001111111111111111000000001
00000001111111111111111100000000
00000001111111111111111100000000
00000000111111111111111100000000
00000000111111111111111100000000
00000000111111111111111100000000
00000000111111111111111000000001
00000000111111111111110000000001
00000000000000000000000000000011
00000000000000000000000000000111
10000000000000000000000000001111
11000000000000000000000000111111
11000000000000000000000111111111